3D863598
BF2D5DAA
BD4B6520
3EF2E42E
BF9347BC
BF2E70FF
BF025BE9
BFB465CB
3F535D3B
3FB37231
BE0B4819
BF99AE58
BE30CEAE
BF4F6BF6
BE915CED
BE0A845C
BEAEA829
BDC84FE3
BEF7041F
401F7606
BEDFD86C
BF56759A
3DE54DDB
BC3BFEE6
BE4EFB29
3E0C9AF0
3EB78296
3CFE00CF
BD8212CF
BE9E7A8E
401C0E93
3EBD792D
BEBB1DF3
3D2F6D45
3DA74D69
BE49661E
BE8FCBC7
BD490454
BF92EE66
BF9AF21D
403D581F
BE417365
BF056D04
BE2F9F06
BD6E59AF
BCB1477F
3DA5F805
BF1CA717
BF3DE23E
3C1D64A5
3FE637A4
3DE9DCE9
3E3693EB
3E375C35
3DC8DE64
3DDDAE48
3EE80CFC
3DEAFB91
3E5A6A64
3F857F8F
BF0EA654
3F93CC9E
3F6F24AF
3F8DD623
3F46D457
3F25CC96
3DD74C5E
3DE7116D
3EBD141E
BE8E9555
BF96D287
3CFC63B5
BF5E89B8
BF63038C
BE956277
BEA71796
3E2FB128
3EE8CECB
3E3E3F5F
BF0BE7F7
3F3CB688
BF574C2E
3E56B6B4
BE33F186
BE8C4B4F
BEDC32EB
BF33E25D
BD9E7370
BE421CA2
3F9AEF16
402286FF
BEDD5215
3ECA0E3B
3F1CD5F5
3F24A42B
3EC036D3
BE9ED35B
3F346B0B
3F516DBC
4013A51B

