3F8822F7
3FA24645
BE8FF57B
BDC5003D
3DE047F4
BF1FF875
BFA7EE14
BFC76F25
BF6B5FA7
C051E859
3FB9F844
BF900441
BF3B2AB3
BDF5EFAE
3F047348
3F3DE8AB
3DD1BED9
BE2B7177
BF30B119
BF9F5676
BF3DABD3
BE8AA25F
BE33E78A
BEC248DF
BDB68DDE
3E515F07
3E9692EE
BE3C2070
BF01E02E
C019152D
3F1C84BA
BE0D8D93
BF38B67A
BE7D537B
BE2634F9
3DD82877
3EEDC2D9
BDE1E786
BF47CA87
BF78D0F6
3F7F41DA
3D5E205A
3C6A39AA
BCD9D553
3E52114A
BF59A786
3E8FCFC3
BEAB95F4
3D4EB505
BF8D1DD0
3F183843
3EF011F2
BEBC5A9D
3D126C58
BE385A61
BF4A8EB7
BE5ED5A4
BF186EA0
3C38E644
3EA86980
3D99757F
3F16582A
3D8A6E29
3F1866A6
BE22B39F
3C97CA8E
3E90A5B2
3E4D909D
BE3657C4
3F173474
3FC73825
3F597C2F
3ED69CD8
3E2EAD7C
3EB991DA
3F027E00
3F0022D6
3F4B1CE3
3F0941AB
3F4DA0D6
BE3F6226
3DD4B2F6
BD0750B4
3EBED4B8
BD42031D
3EAF0241
3F05F5B7
3ECF256E
3F110CC8
3ED841B3
BFF469DC
3F850EB8
BFA2B9F2
BF4DA0E8
BE39B828
BF1FC36F
BF91EAF3
BF916E03
BFBB67EB
3F87BC13

