BFC3D048
3DF79F13
BE3BA5A9
3E93DDA2
3F14B887
BEA88E6D
3D8CA079
BE482BBA
3D86C92E
BFEDC1FD
BF786534
BFE9BE70
3E512D24
3D7CAB8C
BEB754C2
3E94101B
3ED8FC9F
3F52E6AD
3EE46A92
BDC4365C
BF3F1412
BDDB7369
BD7F0A46
BE8183C3
3DEF9B48
BE52A1AF
3E8DE02C
3F509790
3F05C9B8
C027E7E0
BF65754D
BF462760
BE80F3CC
BE7DC17E
BBDA3632
BF556B09
3DC6C45C
3FAD721B
3DE2A5A6
BF9BC82B
3DCC64E3
BC7F6FB6
BE14ECA6
3DCAA8D4
3E1F4727
BF1A79ED
BF03FD4D
3EDA245E
3E8C31E0
BF7063B5
BF9D5243
3EAE181E
3F1BBC08
BDAB2D15
BDCBC0E2
BEEB41E5
BDCBF6AD
3F04E3C4
BEB0FD10
BFAC81CA
BEC44476
3E2E9DD7
3E6EE92A
3E9944F9
BEC4EDC0
3DDAA822
3E8F58F7
3D54A8CA
3F014C86
BFB1155C
3DD8A57A
3E85FC4D
3D1DD54E
3DC3F325
BE824527
BD94D278
3E8FA8F3
3DC68687
3E251E16
BF9BF2C7
BF64C8C1
BE27E418
3ED45125
3DA67B9D
BCFDD77D
3E2427B6
BE0059C3
BEA665B2
BF101D74
BFDD364E
BF806DE3
3F81BE2F
3E770C75
3EA7DF79
BE976ABD
3F3D2021
BEC7600E
3F95BA43
BFDDE566
3F87CEFE

