BF8AAD15
3F3D204E
BD431258
3F0B5D11
3E41726E
3E9E3067
3F2CC6A0
3F649E6F
3FAF2422
3F8EC2CF
BF1E84B4
3E30B733
3E6221F6
BE873BDB
3ECB8168
3F0D1D90
3F649A88
3F0ADA0D
BD9EDC99
BF5AA0CD
BEA13A96
BE84607A
3E674925
BDFA1FC3
3E10E630
3ECAA92F
BB3A4DAC
BE550BD1
BB592168
3F92096C
BF8DE35A
BEAD20F7
3E8217D7
3DAFE3C7
BE6E6D0A
3E9B06E7
BD26247C
BF06CD89
BE26CDFC
BECC262C
BF97469E
BEBA46F5
3E87A64C
BE805592
3EB6852C
3EE06ACB
BE583D55
BE442031
3E65CA57
BEB24FBC
BF9FA5F1
3E36AA95
BCC09186
BDC937F1
3F41B2B6
BE9ECB8F
3D5974CB
3F094D88
3F0773C4
3FA94C6F
BF735515
3E912A7E
3EA87D6D
3F345106
3E7633EF
3CEAA97F
3EA8495C
3E4E8B53
3EF49A52
BEDB31D6
BFA668AD
3EF1E132
3E5F1971
3E26E0DC
3D8650A1
3E72535E
3CA83DDD
3E415CCD
BE1C1B1E
3F15590D
C00385CA
BEB08070
3EA53996
3E8BEA17
3EE258DB
3ED4093E
3C8CE816
3E1C74A9
BF5CBF0A
3D14BACA
BE94A75C
3F14C0F7
BE68D0CB
BF1D65E4
BF339588
BEE7008C
BEFD0307
BF041B74
BFAA67F6
3E8BF573

