BEC70367
BF643F11
BE6CDD45
BF454F0D
3E3314F0
3F51CA01
3F251F14
BEF3906F
BF4CBFD2
BF8AAFD5
BEEFB7F2
3F818B8D
3E7040FA
BEC83C9E
BEB316F7
BE518F6F
BE2D8A3D
3ED8C149
BE8F2B60
C0045D1E
3D926C0C
3EF11990
3DC1B986
3EF6C702
3F0C69F3
3F03968B
BDA199BB
3EA37AC2
3F2B4F77
C094038D
3FA1264C
BE4FD19A
3EB808FB
3E21AE3F
BF203C0C
BE0F9B26
3DCF9A5E
3DF52805
3E9CC4DE
C04BF0CF
BD8B8E6D
BFFF1A24
BFCE932E
BFAE390D
BF35B729
3EA21175
BD9F6D57
3D04A797
BED6171E
BEA3999F
3FBFB2E9
3E3196D6
3EAF6EFF
3EBD9FFF
3F206DD8
3E0AFED8
3DC3E0E0
BD97A9D3
BDC69BA7
BF20416C
3FBB5EAE
3E955768
3F51564F
3D33159E
3E3FF3FA
BD7F5551
BD0890F3
BE481990
BE03F2AB
3F961ADD
BCCAC90D
3EF86FA9
3D7553AF
BDE8CCC4
3CCBC887
3CBA1D37
BC3295CB
3EC7F8F5
BF32DDBC
3F88980D
3F27A9DE
BE0C377C
BE86FD11
BECC956F
BCECDB18
BD5CA027
BEDFCEDE
BF02E5DD
BE172891
3D2494B7
BDA7C09F
BF14CE99
3F2994D6
3F193F22
3E53F701
3E24B229
BF3AAE9E
C0269834
C056E56B
3D7A37E3

