BE93E1EE
3FB45DBA
3EABBF02
3FC6B1CF
3F9DBD65
3F33FEDD
BEAE8AFD
BE37A7EF
3F07BE41
3F2FA060
BF076AB5
BEC4E1D1
3E347998
3F34CCFA
3F02E641
3D31D7A6
3E77900B
3EFC6AD5
3D9B286E
3F89D104
3E9FE026
3EDE6276
3BD15260
3ED3E09E
3F39C5C1
3E78EA54
BCC1DEB5
3F18E96E
3EFBCC81
3EA8B631
3F11055A
BD996EB7
BEF8C8E0
BE6207CE
3E735E6E
3D82C81D
3E44BE1C
BEA3A6CA
BE75D012
BE664632
BF206AC4
BEAAA1B5
BEF1D52B
BE7174A4
3F27A545
BED310D9
BEABDF44
BE675630
3ED22CEE
3F88B46A
3F3F6526
BE23DA74
3E1F50E2
3F1D7A46
3F490725
BEA71B17
3E2AC2E2
BD4FFC1A
3F43946C
3FD8BB7A
BFC6D40E
3F458569
3E6F8A21
3F26E11F
3EB79A5C
BDC56CA0
BD85F9DA
3DC6B5FD
3EA685E0
3F3AF645
3E0E9C17
3F4FF43B
3EA1BC27
3E9E98A1
3F0BB903
3E9A729A
BE35A07D
3E94D930
BEA6E442
3F28BC90
BFC15A68
3EA9EF99
3E8877C5
3F0BC894
3F0A2A96
3F02CC84
3EF6BD28
BECB5A1A
BD9BEF70
3CC8373B
BFC8FC8E
BFBFAE5A
BEDA670D
BF7D9EC4
BF05A4C6
3EAC08AC
BE1B3145
3ED76F43
3EBDD700
BF4BFB06

