3F5C4E50
3F25A2C5
BF1E35D5
3F037AE8
3E9FDD2F
3E53ECCC
3F0ACC55
3F40E05B
BE6F5C51
BF7F0332
B99C3A94
BFC8AE0A
3F2512D3
BED23DBF
3E0DA9BF
3CFE56D4
BF2C68CD
BD547C7F
BDFF3DCF
3F28F1EF
3EA29067
3EACEE43
3F46DB4A
3F31A22F
3F2F06BA
3DFA022D
3D642FF0
BE8E7D71
3E4F938B
BEAE227D
BF8DB422
3F88D922
3F20B4AD
BD941944
3F37CF1E
3EC0C722
3F2CEC4D
3ECFFE9A
3DD17078
BF0DBCB1
3E6D3AF3
3E9AFFE3
BEF0819F
BEA58E4F
3EB16ED3
BE9E14E1
3F0A1D39
BDCED162
3EB31243
BF86E4ED
C006442C
BED04FE3
3EDE76D8
3F1E4CCB
BE3B6A9C
3A38185A
3E172190
3F1D9B21
3F35998E
BE86287C
C031EE8B
3D1A0A7C
3E01E1ED
3E94462C
3ED371E6
3EBA0EEF
3D507289
3EB549AB
3E787C72
BF437D72
BEC5E910
BDC40578
BF136CAC
BEF4DF46
3DD5ED31
BE7B4FEA
BF40DD3C
3D9ABB63
BF1D0C16
BFFB97A8
BFFEF798
3DEEFF45
3BD582B4
BE41D343
3E3E7961
3F09335F
BE8E9C5E
BDA90DDE
BD0B42A0
BFD0458E
BED1ED2F
BDA099F0
BE98EB25
3E4583B4
3C7E816A
BE159AFB
BEFFAA67
3D73D406
3F05AC3E
BF8AE93D

