BF72F7C4
BED37883
3F85DD5C
BF18792F
3DF4AF4E
3E79AB7A
BF228071
3F05172C
BF664F3E
BF73BA80
3D254DDD
BC3CC9B8
BF896153
BF77665B
BE532FBE
3D73FF47
BDF0FEF6
BF59E5E9
3D598C17
BF45B2FF
3F97CC13
BE801861
BF8660A2
BF1E5F67
3F030201
3F158E68
BF316614
BF0AB394
3E8059F2
BE8BCFB8
BF517ED8
BE38C46E
3D687794
BF0985A2
3ED32FC5
3E1E115F
BF13B822
3EE4506E
3C51AA8A
BF1693C4
3EBB0E52
BF1FAE9B
BD8614B3
3D0142E7
3CA3CD0A
BCAF6E8A
BED22624
BDDB4C26
BDA6334E
BE8E1271
3EA31D9B
BF052A08
BE11EE0B
3D060ABD
3DEEA829
BE5892B3
BE205749
3D32AC5F
BE33B21F
3F915068
BDA3575D
3E4E864E
3F0998DF
3EC2E37A
3E14A3B1
3E826D67
3EA98F8A
3EB1259F
3E9CDD89
3E78850E
3DF5367D
3F0AFEBE
3E50E092
3EAF0B15
3D8BBCB9
3D261694
3ED78EE7
3EE14886
BEC883BA
3F471DC2
3F04711C
3F15BCEB
3E7D65E9
3EDEBA30
3E07DE21
3D8A1EEE
BEFFD769
BF6B18F1
BF07372A
3B2050B1
BFB28BB7
BFAB1B3B
BF299923
BC9D7F9D
BF8DFC2D
C017C0A5
BFDF48CA
BFF929A2
3F75ED21
3F830AF5

