BDFDC5AD
3D86EAF1
BFA224A1
3F5BC52A
3E6C1CD9
3F103E46
400B6EA5
400F3D23
400CE98D
401CB902
3ED5E167
BF1269C5
BF62D2BD
BF693BEC
BEF324B7
3D62DA68
3F10DEF4
3F543EA4
3F846013
BED230D0
3F9EA06E
3EB21642
BDB76170
BE341E5D
3DE4F6C9
BE1EA338
3E99B08C
3F394FC4
3F326F8A
3DB63169
BE28BC83
BE26EF74
BE895B35
BD651512
BE99E518
3CAE5257
3D206135
3F5C2E4D
3F48B995
3F3AF88A
BEB35CC3
BE7C3013
3E8B62AC
3EC0AD0D
3EF3F7E9
3E899CA2
BEAD5BFB
3ECFD8EF
3E942E63
3F67232C
BEBB69E4
3F501FCE
3EBE1F42
3F38A6C1
3F64178C
3E5B92AE
3DEA1BA5
BEE18E72
3D689F26
BE179023
3F9090EB
3EDC8453
3F5DA050
3EA961A2
3E8C38F1
3EBBC0AF
3DF57DD0
BED9A5AC
3CA4CEA1
BFB5E432
3D0A2B34
3EE035AF
3D9D1F29
BF076250
BEE22FCB
3C7C7A66
3ECB4B71
3E667380
3E8D526E
3D8D1F25
3890E93E
3DC68F40
3D29A8D5
3E12B93F
3DDCBE95
3E3B888F
BEAD1A48
3E8591DC
3E4D3F40
BFD6C373
3FAA1929
3F928768
BE96C724
3D8C93BB
BDA94961
BDA344C0
BD8347A5
BF0180B6
3CB56CEB
BF7CDA8A

