3FD3101B
BD69B353
3F5DF0DF
3F89AB98
3DD24B27
3E7A9317
3B6EE268
BF0B30B8
3D158AD2
3F554476
3F48A4B3
3F9476CC
3EE19570
3FB868D4
3F6AE0F0
3EF2A2CB
3EEA3501
BDFFA5BC
BE0545AF
3EECB611
3D95D0E5
3EEFBA82
3E33D0C6
3DDE1637
3DAD8111
BD218F48
BDCF019F
BDE0D959
3EAB7944
3F0264B0
3FBE38F3
3E294F78
3E980396
BDF1BA4C
3D7B6417
BD10DB0F
3E2AC321
BCE44C6A
BF218A31
BF80D703
3FDC426C
BFD4351A
BF6AF95E
3D555088
3F5C0607
3F0C70EC
3D181FF2
BF56534D
BF1D3376
BFB63EF8
401368B3
BE361442
BF4E2B59
BFB4DCEF
BECDF92A
3EABDD07
BEA3B16D
3E88EDF2
3EA94812
3F8D8CDA
3FD16A63
3EAE93A1
3E49456D
3D502425
BF90E357
BE0933AE
3ED9771C
3E8C026A
3E84891F
BEF48E1C
3F5850B7
3F454A4B
3E8966D6
3EAA420F
3E8083E2
BEBF574F
BE099BB2
3EA15218
BE723587
BE078F05
3F2BDA78
BD3616B0
BDD31B9D
3DD90164
BE52CDEA
3E8276DA
3EB6DC4F
BECD9EBF
3E085210
3D9B823F
3F4F0DB8
BF943FAB
BF1AF482
3D7A4776
BED2580C
3D23FCE5
3E7BB9A6
BF282D1F
BEFE6CBB
3F9C0A30

