3F802D7A
BE369BA3
BFEDD188
3F3E92C8
BE655AE7
BEC50A18
3CC7801E
3CDEBC9E
3E90F965
BF6CC5A9
3F9D9938
BFA1C409
BE99D31B
BEDFC2C0
BCDD017D
3D849E2D
BEB364A1
BF01F1AA
3EBC872D
3F4D9336
BEB8A0DF
BDBA94C2
3E9CA16D
3D57B0DD
3E0A0276
BE7D4305
BD35DB1E
BEFD2BFE
BDD5A435
3E02B353
BF862382
3E46A287
BE7EBC16
BEA03AED
3E3BB4D4
BE658077
3F077936
3EE67B3E
BEF799F0
BF5AA832
3EDF9679
BEBF90A3
3C320DF0
3E8A1ED3
3E10C5A6
3ECCCAFD
3F4302D2
3F652ABB
BE9FFC74
BFA6CEAD
BF4B7786
BF3D0513
BE998D5B
BDA81864
3F03C05A
3EB8F5A2
3F56C494
BDE34F2B
3E5E79F9
BE5EA922
BF2E9499
3D1D3257
3DA16427
BE0158B1
3EBC76F3
3ED7A282
3C3DD4D1
BE844738
BF0DBD82
BFB11E52
3E12C58E
3F3A73FE
BE896FD4
BEADAA8C
BE29737E
3D68AF26
BD33603C
BE9BF519
BEC8BFA9
BFE1BA92
BEC93A9A
BF46AF74
BE26FEDB
BD832807
BD11DBB5
3E1ED0F7
3E1C8E13
BDD519EF
3F513060
BF008367
3FA2AA33
401FA9DB
3F23A797
3E4E61A8
BB9BFBC4
BEAD740E
3B6E33DE
BE0EAF7C
3F007CA0
3FFB749E

