BFFA36DD
BF6979F5
3E8C9A0F
BEDA9D2E
3FB294E1
3FB2D319
3F4FE4B4
3EF7DF6B
3E149BB2
3F634152
BFCC3A15
BD5FD2C2
BE983B30
3EC318B7
3F4765D2
3F388959
BEBFA797
3F2B99F4
BF502030
BF644B4B
BEEEF181
BF443B8D
3ECE8829
3EC33965
3EEB2A4C
BEABD99F
3E316EA1
3E3015C8
3E69B659
3E82B258
C0626E61
BF20514B
BF061C8B
3EE8A766
3F58F6FB
BF5B243F
BE9DA2BC
BE3072C7
BE5A096E
3E67E97B
C053146D
3E2F5729
BDAAEF70
3C8AE8A3
BE592531
BE4852E9
3CD9C3D8
3D2AA44D
3EDAA216
3E259DCA
BFCD7D6D
3EEF5371
3E25148F
BD84E81F
BE0EBC85
BE2096B2
3C6D1983
3DEC1318
3F29AFCB
BD8C2477
3F72FDA0
BECDF959
BED0D398
3B2369C1
BF216888
3E20212E
BE400F33
3D629CE8
3E179673
BF353AFD
3DA8D59A
3EE867A5
BE0E9807
BE952BA5
BDA6A29F
3F05FE4E
3EC0E067
3EE2DE3F
3EFF0668
3F49EEB2
3F77CE95
3EBFB12E
BE51BB69
BEA69A26
BD141F32
3EEAA5C5
3DFDF8AA
3D9BBC2C
BF39F63B
3F1653B0
3E849FE2
BFB36DBB
3EA51024
3E89B325
3D15ACFA
3E920393
BE42BC96
3F112BF3
3FB78465
BFBF6855

