3E570C51
BD790B01
BEEA52FD
3F9A87F6
BD686381
3F3A01BC
BFEAF30F
BFF8AF23
3E965D8F
BF193CC7
3F9203CB
BEAA3C02
BE81D103
3DB0BA6E
BE4ABB6C
BE2DBB5C
3DAA7217
BE8D8D1B
BF884C44
BFBAB785
3F13741A
BDF400EC
3DF73A38
3EC77F9A
3ED60672
BE6E6D01
BEA8DC71
BE4F1779
BF2D5F7C
BEEB9BB7
3E853605
3F31305A
3DF916B6
3E277441
3ED11DAE
3E9CD803
3EB92B67
3EA35E58
3E924BB2
BF5C6F9E
3DAE280B
BEA8A4B3
3D1946D8
3D8FF143
BF7E1634
3DA1E894
3E44C209
3EAD8F75
3F51720B
BFDD123F
3DBA1135
3ED6129C
3DD555F0
BE7E5482
BC06E7E3
3C1C12CC
BEC24B74
3F224991
3F9CA889
BF5DBC0B
BE5F2690
3E24E07B
3E774B0D
3F38BAFA
3F00F212
BF5A7ACE
3EAE4A73
3F4EADAA
BDB38C40
3F1074BE
BF1507B7
BF0A74D3
BEAD4056
BEFB0C3A
BF048A19
3EEFB11C
3F1654F7
3DCF25C0
3D06DB47
BEB69025
3EFCBBB5
3E653A38
3D685E93
BEBD297A
3EC5199A
3F2771B9
3E0E0FCA
BE598E2D
3EFAF3C1
3FD4095F
3F8916EA
3EAEB874
3C41901A
3F4D0881
3E2223D4
3CE37E3D
3F1E9E00
3F91D847
3E4F7692
401D012E

