3DC559F4
3EEB024E
3FA963A0
3F7CC631
3F1CF23B
3FA8E6F1
3E1A1D6A
3F35D611
3F732439
3F73EB73
3F22157F
3F93A11B
3F828EDA
3FA8B5CA
3EEDE73D
3E913348
BE519D11
BEB6B4FC
BE68CBFA
3F07BF0F
3FC7DE8A
3FB3EFFB
3D83D9EF
BEDB1141
BF3C5020
BE9E02BD
BF0E8A56
BF4BEDF5
BEF2471B
3F4302D0
3DC72CA2
BDF60F87
BE8500DE
BEB78D31
BF02548D
BE46F10E
BEB39D6E
BE0031AA
BF3A1202
3DB08F1F
3E670C50
BDB69CAA
BC3D08CA
3E861C4E
3EA6621E
3F22C145
3EB86A20
3F028460
3F291AD0
BE15C708
3E7D271E
3EEA8B85
3EAED897
BE89149F
3EA1DD61
3ED33519
3E84FFCA
3F02FD1E
3D99E775
3F247CC1
BFD73ECA
3F043A6C
3E0933E8
BEA76553
3E44DAAC
3EFD501A
3F130349
BE41162A
BCFA807E
3F29E37C
BF64AC4B
BEF3C48D
BEC28011
3E227223
3E27A775
3E175EBE
3DCB9680
BEAF2B49
BEB3D516
3E3D4A84
BEFB9E28
BF565D0E
BE799C43
BCAD3B18
BEB014DB
BE3E5C1D
BEE31E78
3DC49156
BF06A42D
BF16D12A
BEE94AAE
BFAC55E2
BF1000CD
C000DD80
BF7126C0
BF7DB958
BDA085C2
BF88F166
BF154EE7
BFC24D87

