3FBBEC35
BE9372F7
3FA901DD
BF9724D1
BFE25C67
BF9B9947
BF79438F
BFA2C6C4
3EE1F331
3EF894ED
3E973B7E
3FAC8EAC
BCBEE437
3C477405
3E9797D9
BD57AFEF
BA83A264
BDF00BBE
3EF7B2AF
3F09DA45
3F6AC994
3E492390
3B62CF06
3DA37C1B
3EA68A48
3DFECA33
3E3EC9FD
3DC9667A
BDE02C8B
BF149E39
BA1DF561
BE42FEC7
3E0A81F3
BD6C1B7F
BCA9CB17
BDA85EA6
BDED404A
BDB3EA56
BD8343C9
BE2CA4F9
BF409B22
BE0BED3D
BDABD82F
BDBB8412
3E8AB14E
3E3880ED
BD77D536
BE89E3F3
3F3A2C7A
BF166503
3E225211
3EDE23DC
BD2584FB
3F695897
3F50C312
3E2E83F0
3BEE6B6A
3AB78DC8
3E428C83
C02A8994
3FD30AFA
BFB9EAEC
BFED446D
BFC844B3
BF2B51B2
BE859B79
BE32C38F
BD1D7037
3D3ECACC
3FD50396
3F715759
3EA83568
3E2F43AF
3DCEE48F
3D707AFA
BDE6C61E
BE994B5F
BDA7D087
BD89814F
BF057B74
3FA380E2
3F9A21BC
3EA609AB
3ED266C8
3D92E8B9
BC92047E
BEB54C37
BD16EAE6
BE48C46C
BF8ADF0B
3FD8EA45
3F9FD38F
3F19F4F5
BF265C4C
BEACB052
BE9376DF
3E54117E
BEBC7C2B
BF81EC0A
40052989

