3E8D6596
3F4EA61E
3FC0D979
BF8AE1D4
BFAD5E8C
BFA7B810
3F0FBE2E
BC01642C
3E61065D
3F26D23E
BEC5D72D
3F37CEE4
BE578EFC
BF073643
BF1C6019
BE3BE96B
3CEC8344
BEA9C135
3FC4F856
40095589
BEC6812C
3F0E5DCE
BC927C1B
3D925208
BE0787B0
BF2C1A70
BE990622
3E466C93
3E8F3CCE
BEF44C0D
3FB9ACEF
3ECC1615
3E0FA130
3E0B194A
3F28D8CE
BD4F797E
3E2C0569
3DF19902
3CF1E642
BCDA4992
3F6B48E3
3EA2685C
3F3D61C0
3E67336A
BF553493
BEE5D17B
BCEE04DB
3C73B4BB
BEB8BA9E
3D0E4E0B
3F967807
BFD128BA
BFD1B586
BFADFC01
BD827F6E
3E9B183B
BE82E02E
BD91D243
3E55D385
BF91EE33
BFAF39CB
BF08AE2E
BDD32240
3EAFB3A0
3F4D9668
3EE047A1
3DA53D33
BD49CD3C
BE50D8CE
3FBFEC03
BDDDE4DF
BE8E96AE
3F00F945
3E7A5C3D
3EAB728C
3DD7D54C
3EBD5161
3D17CF5E
BEEB9C43
3ED56081
BFA94C43
3EB93476
BDB07E30
BE327B59
3ECDCAD1
3ED84679
3EBC2B7F
3EDEAACB
3FC2E2A1
3F2107DB
C051F28A
BFEAC585
BEE0DCD2
BF6F188C
BF55A58A
BEF4FC14
BE22784C
BEA72D23
BEFF2FC6
BE1A9AE6

