3CA14952
C000E41C
3F210840
3F404221
BF74DC36
BE96D902
BF0C7221
BF2693A7
3F970B71
402ADD31
BEE5E6C0
3EA89709
3E3F44A9
BE8E453B
3F75B3D5
3F40D5C1
BE0F7DAA
3D949C0B
3D76E569
3E66C417
BD5532E7
BF0D4090
BE61E646
BE117FD2
3F805D7C
3F0B5CD7
3E0AE6B5
3C448FA1
BF170027
3F56BEB8
3F03FDFE
BEAC0BD9
BEBE86A1
BEFBD282
3F67974E
BEF70133
BEF2B8A5
3ECBA174
BE7C6E01
3EF9F8F1
BECDDC51
BCBFF932
BEE93FEB
BDD14CC7
3ED36AB7
3ECA34A8
3E148ED1
3D6CA4A8
BE7E4EF6
3EE18EE0
BDEA9E67
BF277566
BEDEA149
3E821BA1
3E18AEC9
3F2FE4B9
3EB7D126
3D90AB83
3E9E41B3
BF58FAFF
3EC24823
3E55DDF4
3CEF1517
3F1AB79E
3DC84929
3F034CCA
3F102560
3E7B3244
3F202857
BFF56CF4
BEBD0009
3D9FF77A
3EE416BB
3DE4154D
BF09342B
BBDB5907
BE0D40BF
3CAEEF12
BD3766AB
BFDB8353
3FB5202A
3E9D3D6A
BE22EA1F
BC70DC53
BE5B0E33
BE2B5EB4
BDE23347
BE8F495B
BFA0A1CB
BF88F034
4007784B
BF74DD86
BE2911F8
3FD2C528
3F139BB9
3F23930F
3F5E8EF2
3F733464
BF7E758D
BE872380

