BF413807
BFB9CC6B
BFA6970A
C012EA22
BFBF5594
BF796E4F
BEA1A8EC
BF824E40
BF3C8A9E
3F69AF12
3F428C20
3FB4AB88
BE8EE35D
3DF8DDA2
BBD529AC
3E6F9078
BDCA361B
BE3CC009
BF0C10D3
3D35FEE2
3C2D7FE2
BDEF344C
BE56190F
BEA190E7
BE0A9812
BE08C31C
3E30A3A0
3D995F8C
BC850D9F
BE86056E
3F00636D
BDC1830F
3E0E796B
BEC2D615
3E24EABE
3EE6600D
3F24C57C
3E109402
BDF2B649
BE601929
BDA0D798
3E3F4D99
3E3C2FDD
3D8EF584
3ECD8CDC
3EA65D97
3EE0B4BD
3E21A086
BFA7EC35
BCD6C620
3FA4DD04
3DB504AA
BDB198D9
BEA21790
BF136340
BEA93310
3E44530D
3EB6372B
3F2A0147
BF15E08E
3FFC0EC8
3F12A77C
BE417FDE
BEEA7796
BE01B6F0
3E9CD709
3D0DDFE0
BDB2E49F
BECE116D
BFE99C12
3F632C21
3DFF9E47
3E9575AB
3E36BF6B
3F00893B
3EF3FD43
BDBA8B01
BE56B9B4
BE986EEB
BE954B3B
401BC374
3F00008E
3E62E195
3E269F7A
3DD407A7
3DEDB712
BE92C6EC
BE9C9290
C007D1C8
BEC80F77
3FDDE2F8
3E07DFE6
3E767FC8
3EFC9FE2
3F108007
BF3EE00A
BFA5A2C5
BF13DE71
BF25808D
BFA0C6E9

