BF09D290
BDA75B72
3FCB8C9C
BE2D16EC
3CFFF318
3EB8B4F3
3F44D0D3
3F953913
3F03E07B
BEEE2B22
BF306864
3E4F3B7A
3F85D9BE
3EA5A032
3F8C57B6
3F462F73
3EC70416
3E8238F1
BF103678
BF9EC824
C01D1F5D
BF16DEFF
BDBA3B53
BF64F141
3D840856
3F5A0E74
3F901A58
3ED9A85C
3E22CF61
3DA637B8
BDC887AA
BE5F19D7
BD6E8FAE
BE757479
BEE53061
3E62A8BF
3CB71010
3E965826
3E6E3DEF
BFD249A5
BFB107E9
BEE9BFB7
BEE443A1
BE18EB32
BE0E6691
BEB4FC49
3E7FEE3E
3EDCF5AF
BDBB323F
C0411108
BF996356
BE49D5FA
BDDF2771
3DB7024A
BE0DFBEF
BEEEA91C
BE41C482
3D554170
BE740454
BFA4304A
C01DF5B9
BF3E64B7
3EB68886
3E1612E6
BE1DF501
BEDE48AC
3E81371F
BEF02DF0
3E4BBA4D
3FE3B170
BFBDD5D9
BE1A4106
3EB73B3D
3EAC0B4F
3F0D8C88
3EA18375
3C452271
BF178651
3DE18EF4
3F544ABA
C028D893
3E5937D2
BE234BC3
3DDF4512
3E799E6C
3DCB616E
BDDA2B92
BCD969DB
3DEA1C84
BEC1B74D
C00A68A0
C03C0715
BF6D4088
3F4A263A
3EECE693
3D809818
3D1B9779
3EF5B9B4
C00C2228
3BF4A43A

