BECC18F3
BF42B78C
BF733E7B
BE9CBC1F
BF02BCC5
BF2C9D2F
BE967C2C
3EEDD50F
3E54AAB4
BF0E9F39
BF238D31
BFE4473F
BF8F0F51
BF04B2A1
BE47AA6A
3EA5FF5C
BEB31208
BF5E9C6E
BF15DE98
BF0CB294
BF142E09
BF681E17
3DC8E01F
BE842B60
BDACD3AB
3E839DB1
BCD217F6
BEBAA3D8
BEB4104D
BDF477CB
BF6A4B9E
BD44A408
3DAB245E
3E272BD1
3E77D3ED
3F10B200
3EA92240
BE12F3E5
BE811FBC
BE0A24DC
3FA11C3A
3E4F0AB1
3EBA19BE
3E155730
3E897178
3F2AB2B8
3F0EF2F2
3EE02021
3DC64FFE
BE0A779E
BF70D81A
3E1343B6
3E708950
3D50E061
3F22B0FC
3F125EA5
3EF907BA
BD8F7701
BDD5ACBD
BE9166CF
3F02CCFE
BE28580E
BE0AFA45
BE64000A
3E5BD260
3D9A8F22
BD4038F8
BCD0F008
3E6DF459
3E614BEC
3ED278B2
BE8FEF7E
BF44DD7C
BEDAC671
BEDE80AB
BEA1D8FA
BBA821B8
BE22930B
BF2448DF
BF5F259C
BF436961
BF207DAA
3E5DD6F5
3DAD8517
3E16D8CC
3C885E14
BF08B3BB
BD8B98E3
BE996A63
BE6F3C7E
3F44B766
3EFCED27
BDEA8FAB
3E78FE46
BE9633B5
3E0D0D91
BE327E97
BF4157CA
BF3C915A
3FBDC95D

