BD475A86
BF2399A2
BE4AB9FF
BCB54D04
3F1A3D96
3EF9629C
3F096912
3F10DCDD
3F4C514A
403AE3C0
3EA4BB27
3E136EE4
BE6E7221
BEEC306F
3DE36CAE
3ED5962E
3F207775
3F57C66F
3E9FCE7A
3D64E45C
3DCC1BEF
3E8C3F6C
BEF9ED12
BDF6DC3C
3C90432A
3DFFEEA4
3E846799
BE4D6852
BECE3D4D
3F81DE12
3F8952C3
BED5286E
BDA4228C
BEA3EFCE
3EA442D9
BE156DBA
BEBCE4E8
BD8A7CEE
BF336259
BFB60CA8
BF419D55
3E7636E6
BE884B5F
BEA7BD57
3F672F91
BC876239
BCF469CE
BE7B94FE
BF89F433
BFF51183
3F95310D
BE707033
BD3F01C0
BD4A11CE
3F5686BF
BD5E7DB8
3E67F8D2
BE9A3299
BDC66318
3F4FB6C3
3E9720F9
3F337D4F
BDB56E25
BE04E1B7
3D0865B8
BE94D830
3D0D8FE2
3EB35899
3F4D092D
BFB75B25
BEC343D6
3F291B63
3E537A19
BEBD90AA
BE087602
3E6ED893
3EE171DF
3F63D220
3F23D52D
3E1C49C0
3F3513BC
3EC17C1B
3E9287BF
3E339553
3E92C9F5
3EFEC3FE
3E881B95
3EE1BEFA
BE0EDF9A
BF9442CB
3FB9509F
3F17A405
3F904C25
3FBF10DA
3F554958
3EAF23F4
BDACCF6F
3EFBEC7F
BEFEB626
C0007B87

