BE5F0D02
BE096DCF
3F0C1F00
3FA9ECA1
3F45650E
3F423E3D
3E4D0D7F
3FADDC9E
3F92C1F9
BF4F55C3
BEB67470
BE88425C
BE432612
3EA9C679
BEDCD2F5
BEA0B528
BE206FF2
3F04A5A4
3EDA8909
BF338800
3F0B8B7D
BEE20FCA
BE398256
3E7FE7AC
3E0C1D6C
3D6DA0A0
BDCABDDD
3EB2610E
3E8D50EB
3DA48049
C08B8CC7
BF1A8FBE
BE3AE23F
3D80968A
BE234E2F
3DA0CEB0
BED5E670
BD6F5563
3C1A2875
3EECA830
BFAF639D
BD4CACCA
3E2D9CB7
3EA48C3C
3E236C81
3F1348D1
BDA4F8CC
BF073B50
3EC11904
3CA13F78
C02B00FA
BF4FA964
3EFCA592
3EF8F27F
3EAC75DB
3F28642E
3F1456B2
3E4BE78A
BED77B6A
BEDCB4FA
BFAA3E67
BE1B5B46
3E70E5B1
3E0E2386
3C89F4EB
3EC5A6F4
3E2D0540
BD3C025F
BEA977DB
BEAAF3AF
BF66C5C0
BBB9484E
3E117695
BC442D7E
3EC8A21A
BECCCDC9
BF2B7948
BF31B211
BED537F7
BEA9D73B
BF5BB67C
BF0CC4E2
BE9D45AE
3C95034B
BD471E2F
BE5593BB
BDB42EFC
3E1C66B7
BF0261FF
BD9ABB59
BF8502C1
3F91AFFB
BEF3E450
BF4D31A6
BEE82578
BF4E66DD
BEA9AA28
BFBF464F
3FA47E18
3F5211CF

