BF592180
BE9E804A
BEBC35E2
BF9475BF
BF886F7A
BFEC3B4D
BFC20ABC
C002FC9B
BFE61665
BF9244AB
BD8695ED
BF3DC855
BE9F6C1F
BF8FDC04
BE68B5BD
3E5E426C
BEEB2420
BD2CE330
BEA1D0D7
BF9119FC
3F7029DD
BE5B58F3
BEE982B3
BF24020E
BE2F077E
BE9D2D64
BD6B4FEE
BE8CCF87
BE8EC181
BF59CDE7
4003B900
BFE13E2F
BECC52AC
BCF5E241
BE9A783F
3E1C1230
3F2BF3E8
3F3801A2
3EF7CE0F
3F6FDABE
3F558D8A
BD132786
BDCE5FD9
3E8B77D4
3EE5F590
BE1C6B47
BEC10ADA
3DE43E3C
3ED258A4
3FEDB035
3F394828
BDADB0E0
3E7A845F
3E672F45
3D8878D3
BE17F745
BF200A08
BEF5D8EE
BDCCEE19
BE32BA24
3FA386B6
BEBCF8CF
BDE78ED3
BE08A2E7
3ED5CFD1
BD818592
3E3D9B36
BD6376FE
BF597AA9
BFF94E14
3FFB0B8D
BE497974
BEC244E6
BEA94BBC
BEBEE63D
BDEBBAD2
3E986F51
3D4827E1
BD99A7BF
C00A93E9
3FB306A0
BE8273BE
BD793352
BE1E5466
3E7A6DA4
3EB10F45
3E1C4F05
3EAA10AD
BD9424CB
C015F6DA
3F5F8A1E
3F6F5F72
3F379B4E
BDF9E03E
3E4670D8
BF3D4723
3E1ED45C
BE5F8759
BF5314BE
BF0EA27D

