BF777C2B
BF8C0697
3E9B2033
BF488407
BFA584B3
BF3C73A0
BF8D8A22
BF8D0B8C
3DC710FC
3F88F569
BF9D21D3
3D07795A
BE3DAEB5
BF4D70EC
3DEFB38D
3E17BBF5
BD865EB4
BE6AB8C4
3CDBB176
3F8BD997
3E870FE6
3E3ADE82
BD981BB5
3E7D664B
3EF4C05E
3F6940EE
3E941F29
3BAD8B2C
3E10F959
3F2CD5FB
3E9874F9
3E23CE8A
3F16851F
3EAF6D3A
3EF75824
3ED7016D
3C1DF37F
BEB32DB4
3F17D095
3F81791B
3E3B4965
3E8334D0
3EE89BDC
3E95A57B
3F11961D
BB21282F
BD919E78
3DC06C46
BF14C049
3F91683D
3F69B5D3
BDE27895
BE21A329
BE611F1E
3E9F6E09
3E235A70
3EC937E0
BDFD8374
BE411A15
3EC131DD
40443AE4
BEA0FE05
BEA0C50B
BEA4EF56
BEB2E357
3E86C9AB
3E3C02FE
BDF12053
BD7BA50B
3F4AE647
3FE88C38
3E43AB15
3E93A750
BDD4328D
BCF3C577
3D64A164
BDF08CE4
BD718B4C
3ED3B9C7
3FA5E9A3
3FCB7427
3F210387
3F7D2FEF
3F5923BB
3EA164EF
3D380E79
3EB18902
BE4944B4
3EE10355
3FF1CEDC
3F5C2003
BF4BC93F
3E8E838A
3F015BB7
BDA95EF4
3FA6B7FA
3FA7A9E9
3FA077E2
3F2783DD
3EFF250C

