BE7DFE2A
BF4F37E8
BF925FE5
BE14CC64
BF9CA557
BFB799C1
3ECF2935
3F3487FA
3E3E92A1
C03FCD39
3F934A7F
BE808DFA
BF84C2AF
BF09ADAF
3D593BA7
BE75D1B7
3E168422
3E866B5F
3EB5866D
BF881228
BD052212
3E229344
BFA53A39
BF800B35
BDCB1D9D
BEB36A33
BE1E97A5
3E878704
3E2621D6
BFD37AD5
3ECCC91E
3EB912F9
BEE360D4
BF51B921
3F1E91C1
3E3C22A8
3AA07266
BEB602CF
BF497FFE
BE816A82
3F617644
BF06CF33
BED6C8E3
3C9FC036
3FB2899F
3E540FF2
3E0C5B05
3F3F48D9
BF00C72C
C012FB27
BF00FED7
3E05955E
BEB39189
3E44BC27
3EDAF435
3E44F077
3DDD807C
BEEDF516
BF1FED99
BF9A629B
BF6186CE
3F1AD673
BF0422EC
BE834389
3EE225B5
BE6BCF58
BE74087D
BE790D17
3F1206F0
3DC78108
BF570A3F
BF154D5A
BDA95D5E
BEA7B5BF
BD98FC24
BE267635
BEFB9D14
BE148F5A
BF4BCEA3
3FBE19E8
BF7B536D
3E96C431
BDE44692
BE548855
BE55178E
3EAD823C
3F3EE4FC
3F30F087
3F8C82E2
3FD4D629
BF267EA2
BF83208F
BF1070DF
BC89EEA4
3D543774
3EA88F3D
BF4D6E50
3E69706B
3FAF2A0F
3F9917A2

