3F625E66
BEC624DE
BF0369C4
BF820A5E
3F206EE1
3ED700F8
3FC259C3
3EE945DA
BF1B0F58
BFD40198
3FBFFD8C
3F7138DA
3F5E6B35
BDF1BBC9
BE395F62
3EFB0EE4
3EF43860
BE64A9D5
BEDF7475
BF4B819C
3F4B24F5
3FA138C1
BF0C8FBD
BEE962CE
BEB6EE5A
BDCC21B2
3F2B22A6
BE26BFF8
BD70873F
BF7B4F89
405588D5
3F3BD66D
3F12658D
3E8D3999
BF086F0F
3F0776CB
3ECD07DB
BF52018E
BF5815C1
BEC51F05
3F8131BA
BE4F37D4
BF0C8BE9
BED669F0
BC13AB06
3F282D95
BF044F8B
BDEDFF07
3C20E322
3FB61A34
40009B22
BF6D4AB7
BEEBB4BD
BE3E4546
3F1CF415
3E9D2423
3DEFF4C2
3E9A2252
3E9C78FF
3D7EBF11
BF7C5E1A
BFB60BEE
BE290CC7
3F17F9FB
3EB275EC
BE5665A1
BE5F28FE
BE721D87
3EB85A10
3F0457BA
BF00D411
BF60151C
3EAFD4EF
3CDD6165
BDE0B05B
BC154660
3D7E431A
3EB85326
3E572071
BC797665
3D85A9F5
3E8FB636
3EAACB49
3CE1C5C2
BC46CE27
3E11B053
BD80E229
3DA8C2E4
3D748973
BF3C44CB
BF267CF6
BEB5BE6B
3EAD9A95
BEF764D7
BF3344AD
BDC98725
BE9A4521
BEDF806A
BF82A900
3C05286E

