3F8A7185
3F6ADDF8
3F9D2817
3FB23371
3FB092C2
3FBD497D
3CF0FDEF
3E0EB698
3E295046
BF8612CC
3F275744
BE530E5F
BF1FEB63
3DFB65DD
3EE41503
BE0DA113
3F32FAC7
BD9667B5
3D079BA4
3E9FF882
BF8F3A2A
3E6FDCAD
BE8B014D
3DF190F4
3E734CD2
3EC4893C
3E81F3CB
BE6F5251
BE9A6BB2
3DF5F39E
3FA27DA6
3F5F22A1
3E337734
BE8FC2DC
BBAE6C90
BDF16002
BC130DF7
BE714504
BF084303
BF9DBB26
3FA61CAB
3F54201B
BD87088D
BE3423B6
BEE61342
3ED03021
3EC2F940
3E7F6F6A
3F1FB97F
BEC4CEB8
3EBEC9BA
3E1604FC
3D3B31ED
3E947BD4
3F2BF12E
3F7DB5C5
3E3A3F69
3F161B78
BE366469
3FD138B1
BFD6BAE4
BEBCFCD1
BE4AD367
BDB77C5E
3EA3670D
3EC628C7
3D249BFF
BD9B1A5F
BE16710E
3F843DCB
BF1C536B
3E4994EE
BD1A466E
3EB5AAFA
3EA9216C
3F781715
3F0D2390
3F239CA4
3F5985A7
BE421722
BF8BF85C
3D215FBF
BDA19D13
BE216666
BD18E1B4
3BFF4F76
3ECBBC41
3F8A06E3
3FA05C14
3D8EA2EC
BF87221A
3F753FBE
3EBFE115
BEA434E1
3E962B51
3E0A1107
3F1BBA43
3D92BEF8
BF5397DE
3FE78A99

