3EC0CBF2
400BC51D
BF729629
3F473860
3F5BCD99
3F96FF6F
3EAACC04
BF489D22
BF5A6A69
BEB83118
3FC68ED2
BE731725
3F7D9E50
3EE688F3
BEAE229A
BE175A6D
3EA55125
3CDE56B7
3EF56202
4018D7E8
4039DC31
BEFB163D
BD448959
3DF95E69
3E90D536
BEF893B4
3BCA739E
BDDC3FB8
BEF39456
3F7C601F
3F84CD62
BEC04F40
BF2AEB1A
BF0D4314
BE1C7F2F
BC1456A0
3DA4533B
3D193265
BD642CF5
3F1FDAC6
3F80237D
BE76E33B
BE7F48E3
3D885B4C
3F4D59A1
B914272D
BD945C8E
BE479A35
BF1003B5
3FB74A2B
40159861
3DD0C3D3
3F1EFCA2
3EFF6575
3EBC5D97
3ECF6C96
3ED63CFF
3E767963
3F2F2BF1
3F83C4F3
3FCCD0D9
3D8A7ECE
3EB24A13
BDB9BD9C
BDC88400
3EFA4CDA
3F08E7F5
3F43A824
3F029F04
BEA51387
BE9E53C6
BD6BF535
BE4FB6C5
BD4CA387
BF11CCFD
BF2BC239
BEC02B2F
BEE4DE6B
3CE30394
BF450F58
BF049587
BE0A3F36
BE5C81FF
3C16DF97
BD700709
BF06B29D
BEF676F9
BE8DD4A7
BFC05C61
BE54E3D4
BE8C1642
BF97E72C
BF975C7F
BEEAA662
BE8ECCDF
3CA5992B
BF3DA9F4
C00D5444
BF0B7B0E
3F680544

