BF996267
BDBE05D9
3FFAFADE
BF6F5722
BF60133C
BE5EADB3
3EDCD6ED
BF9EEEFE
C015D77C
3E376676
BF6A7163
3F050A49
BF35AC5D
BF024F96
BF6B47FD
BE33FCCE
BF492EA3
BFA535A3
BF27E9B1
BF0C52FD
3E9CDE8E
3D39F7B9
BD0E72A9
BEBFBC8A
BF048F31
BF49377F
BD14941F
3E392DEF
BC2ECFFE
BFA1DDD9
3F92C115
3E8F582A
BBB97177
BCBB9E6C
3E709557
3F116C37
BD57A49C
3DE9BB8C
BE3998F3
BF3B28D1
3E7402A2
3E92220A
BC80A766
3DFE2C9B
3E7B8963
3EF398E8
3D9F3F47
3DDED756
3CBFB4A8
3E37CC65
BD2D0A73
3F0552F2
3E27A438
BC32FF85
3DF0FABB
3E8AD8A1
3F0619CE
BDB80A83
BE68058E
3E82AA20
BF120AB2
3EBA3A15
3D65F067
3E91C05D
BE64BEAB
3F3A7BA8
3EF254ED
BEAADB20
BDCAF375
3EE9CD1A
3D1B0F74
BF9662C5
BEF5C7FB
3E9E5376
3E579129
BEC7DC0C
BF4384E3
BE3D333D
BDEB2FFF
3F5DB36E
BF4F39B7
BF39D5AB
BED900B0
BF751FE0
BF9E8658
BF984C1E
BF67A069
BF8C64A8
BFAF52D1
3F1CDE66
C02C94AA
C026388D
BF8551BE
BF98306F
BD22040C
3F410D0C
BE3B5E13
3F4805C8
BFACF70B
BF8E471A

