3E838C58
BF157FEA
3DEC2AC6
BE37A2E1
3E8E9881
3F31F9AA
40077AE3
3FB042E4
BE5FB8EF
BC397D72
3ECACBEE
3EC4C5E5
3FCD7E43
3F672229
3DB59787
BDB40198
BEF93062
3D6B2288
3C0CEB5F
BF8141D9
3FC32FEE
3F111B27
3F14F9C2
3D98BE39
BC904081
BDF4DFCC
3EBEB9F0
3F08C9A2
BD7A286D
BF3559CA
3E8E5B3F
3E161ECA
3D98565C
3E2899B0
3F0644E4
BDDE14F8
3E7CCA33
3F3D0FDC
3F0B6FB6
3F0EA115
3F6D3C39
3E895DD5
BEC759EF
3F0F8B6E
3E203505
3EDA28F4
3EB6B2A5
3E953054
3DAB89B7
3D85898F
BE4DD6F1
BD932CC6
3EDDBAD8
3F077D6B
BE527551
3E8A4729
3D6197DB
BEFDAE2F
3E1F4758
BF62FC0F
BF4CCBEF
3EA84569
BEBCB6CC
3E7D0B69
3E8ADD7F
3E8A6745
3EA1F97F
3F180746
3F2332EE
3E3086D0
BF5B2632
BF402AF4
BECE7510
BEDD4814
BE486CEC
BF06BB7B
BE1D15C3
BC8D504A
BE9BF6B0
BEA7C857
3EC5802F
3F8F6218
3F135BC9
BC29C754
BD8DB72B
BD1B1B25
BEE45E2C
BF34FB96
BFB43015
C01834BB
3F1489BD
BF3DDC56
BE9786AB
3EB4281C
3E856AE8
3DC150C4
BEBAE383
BED06092
3F275868
C0328BFA

