3D96FD84
BF874A6F
BF4AD5A0
BFB5D4F1
BF267DDF
BF8DA8CB
BEE8F432
BE6EFFC5
3EB97140
3FE85D2A
3F241925
3FDC8C17
3ED50CFD
3D6AD7E2
BF0CE68A
3E21DBF3
3F0462E6
3EBE0876
3F5D5E20
3FAFB51E
3ECFD406
3F5D65A8
3E45391B
BE93B350
BEEE15C9
3D679D96
3E5DBF8B
3E933B1B
3F1B5234
3F8488D7
3DBF84F0
3ED2FDC6
3E0AF31D
BE8AB4C7
BE47FD17
3EC73684
BDB285D0
BE9861A5
BCB9807B
3E191EB8
3EBC0B57
3E408716
3DB9F2FC
3DADEC35
3EDA7C69
BE8DBEF9
BE95B0FF
BF2C84F6
C00820DA
BF926DFB
3FACBFC9
3ED47ECF
BDF39A77
BE6C1798
BE07AA9D
BE8FBAC7
3E8EDA7D
3F3EBCFD
3E9C852E
BF1C44FE
3F52EFAE
3E4DDF25
3E988C10
3E50157F
BF0BDDE8
3E20F686
3F40EF84
3E4E80A7
BEB37192
BFD37F14
3F724E37
BF31A890
BE879301
3EB31A9E
3DF4311A
3EC4B074
BD9E459A
3E0E8261
3ED76C06
BF4EABFB
402A5FD3
BF99A564
BF8AD221
BE0E607B
3D5AD3E3
3F05FCC0
3F2F27A0
3ECFA64C
BF3B00DB
BF32B842
3F88D5D5
3E47EF56
3FB3D3A9
3F85BDC4
3F6B4126
3F14C159
3F569DBB
3EF615E7
3F9AA968
BFC97CBB

