4004E103
3F3AF616
3EDDEFC0
BC189531
3ED0391F
3F283514
BF94B184
C03B41DF
C0812935
3F809FF0
400502F6
400E233C
3F61FAD3
3E52FC22
3EDB981B
BDC3B9AD
BF22D4F5
BF7758EA
BF4F1FA8
BF48518A
3E391743
3F41F39F
BCB708A1
3E65D9BB
3DC32B5D
3EDB90F0
BF034533
BF504A6C
3F1D07E8
3E48C6C8
401875F9
BE985593
BF10EDDB
BE7FEACA
3EE56EBC
3F391C17
BF4A97AD
BFF9A68B
3F94EEA5
3FA8369B
4003EF76
3F168771
BD1D1348
3DFD33C1
BAE52075
3E51C297
BF1E2CC1
BF573BED
3F410FD1
3EB8D963
3D237D4A
BDC9A67C
3E2556CF
3E37DE3B
BE5B6394
BE28C7D9
BE83D27C
3E2F15A1
3E7A722D
BEB6C919
BDC74C1A
3F1E4901
3E8970F5
3D814137
BD9E3878
3DB4A79B
3DCF90DC
3E53A7CC
3EC6966F
3E922474
3CB3A4F4
BF1AC805
3E8A63D3
BE354266
BD98149E
3E10EA9D
3E04C250
BEAA3A71
BE890201
3F731E45
3F7CBBA3
BE9B15EA
3E966AD8
3C44A29E
3E2F45E8
BDECF7FD
3E91B609
3E477341
BFF98A6F
BFA7E89C
3EAB12F9
3F3F9559
3FBBA707
3ECCEC00
BF736CEB
BE5C7094
BC2083C4
3FB29C5A
BF27B68C
3DFE6F28

